#include "model_tflite.h"
const unsigned char g_llie_model_tflite[] = {28,0,0,0,84,70,76,51,20,0,32,0,28,0,24,0,20,0,16,0,12,0,0,0,8,0,4,0,20,0,0,0,28,0,0,0,144,0,0,0,232,0,0,0,240,6,0,0,0,7,0,0,192,17,0,0,3,0,0,0,1,0,0,0,16,0,0,0,0,0,10,0,16,0,12,0,8,0,4,0,10,0,0,0,12,0,0,0,28,0,0,0,60,0,0,0,15,0,0,0,115,101,114,118,105,110,103,95,100,101,102,97,117,108,116,0,1,0,0,0,4,0,0,0,152,255,255,255,21,0,0,0,4,0,0,0,10,0,0,0,103,108,111,98,97,108,95,114,97,119,0,0,1,0,0,0,4,0,0,0,190,249,255,255,4,0,0,0,5,0,0,0,105,110,112,117,116,0,0,0,2,0,0,0,52,0,0,0,4,0,0,0,220,255,255,255,24,0,0,0,4,0,0,0,19,0,0,0,67,79,78,86,69,82,83,73,79,78,95,77,69,84,65,68,65,84,65,0,8,0,12,0,8,0,4,0,8,0,0,0,23,0,0,0,4,0,0,0,19,0,0,0,109,105,110,95,114,117,110,116,105,109,101,95,118,101,114,115,105,111,110,0,25,0,0,0,4,6,0,0,252,5,0,0,204,5,0,0,148,5,0,0,100,5,0,0,84,4,0,0,36,3,0,0,244,2,0,0,132,2,0,0,116,1,0,0,88,1,0,0,40,1,0,0,16,1,0,0,220,0,0,0,200,0,0,0,192,0,0,0,184,0,0,0,176,0,0,0,168,0,0,0,160,0,0,0,152,0,0,0,144,0,0,0,136,0,0,0,104,0,0,0,4,0,0,0,150,250,255,255,4,0,0,0,84,0,0,0,12,0,0,0,8,0,14,0,8,0,4,0,8,0,0,0,16,0,0,0,36,0,0,0,0,0,6,0,8,0,4,0,6,0,0,0,4,0,0,0,0,0,0,0,0,0,10,0,16,0,12,0,8,0,4,0,10,0,0,0,1,0,0,0,2,0,0,0,4,0,0,0,6,0,0,0,50,46,49,54,46,49,0,0,246,250,255,255,4,0,0,0,16,0,0,0,49,46,54,46,48,0,0,0,0,0,0,0,0,0,0,0,56,240,255,255,60,240,255,255,64,240,255,255,68,240,255,255,72,240,255,255,76,240,255,255,80,240,255,255,84,240,255,255,50,251,255,255,4,0,0,0,4,0,0,0,209,218,59,191,66,251,255,255,4,0,0,0,36,0,0,0,204,167,238,189,227,104,193,189,61,225,229,190,236,75,132,189,194,19,227,190,242,41,155,190,129,147,8,191,72,110,51,190,137,166,157,189,114,251,255,255,4,0,0,0,8,0,0,0,1,0,0,0,2,0,0,0,134,251,255,255,4,0,0,0,32,0,0,0,102,172,70,190,149,124,164,190,20,238,131,189,23,147,181,189,168,136,108,190,183,79,204,62,129,120,251,61,114,197,33,62,178,251,255,255,4,0,0,0,12,0,0,0,180,87,13,63,253,56,152,190,154,129,219,190,202,251,255,255,4,0,0,0,0,1,0,0,18,213,74,61,170,10,190,190,181,158,231,60,118,249,240,57,84,72,131,61,188,234,0,190,4,243,60,62,180,147,19,188,16,97,116,189,158,216,235,189,198,244,250,189,250,164,235,189,103,203,127,189,117,191,215,189,194,99,103,62,17,175,19,62,122,89,15,189,204,26,162,189,139,10,169,59,105,235,172,188,249,15,174,61,5,226,202,61,232,101,164,190,139,151,5,190,219,248,6,63,31,5,13,62,91,87,212,186,135,1,205,187,28,120,93,190,29,35,162,190,124,254,235,189,36,226,171,62,214,208,102,62,105,35,39,62,59,255,159,190,68,176,89,190,215,131,100,189,82,24,175,62,96,117,81,61,58,128,187,189,245,228,12,63,201,243,189,189,16,27,1,190,50,112,32,63,13,155,36,190,180,35,145,189,154,16,180,190,104,21,32,63,251,104,29,63,109,61,28,62,234,3,103,190,52,101,47,189,146,1,147,190,226,248,134,62,138,205,45,62,52,170,30,63,46,6,57,62,88,250,50,61,93,106,132,189,218,240,173,190,16,20,155,190,95,77,169,190,223,48,20,62,24,51,122,190,214,252,255,255,4,0,0,0,96,0,0,0,190,14,146,189,255,210,96,190,161,123,127,189,177,39,31,62,88,127,221,189,202,209,226,61,175,124,24,63,254,233,78,190,4,134,235,61,58,193,174,61,234,79,129,62,38,17,8,191,176,44,130,62,49,221,16,191,246,9,74,190,45,36,147,62,21,247,57,189,125,48,155,62,215,176,166,189,10,127,174,190,188,186,45,62,188,252,17,191,42,120,177,61,173,30,110,62,66,253,255,255,4,0,0,0,32,0,0,0,241,124,93,63,149,48,155,189,1,31,61,63,189,170,10,62,54,218,246,62,240,118,23,191,160,81,69,63,165,87,23,62,110,253,255,255,4,0,0,0,32,1,0,0,87,42,190,189,49,9,96,190,120,72,69,62,81,6,140,62,69,121,210,61,121,51,252,62,93,66,48,190,224,25,208,61,140,233,75,190,220,224,190,190,37,53,21,190,250,153,196,61,5,18,235,189,29,200,51,63,189,169,104,190,147,78,144,61,248,6,6,61,32,43,31,190,2,3,69,62,245,94,13,62,250,38,209,61,198,4,218,61,13,23,53,62,179,9,174,189,38,231,167,190,101,209,198,190,26,68,116,61,128,223,215,61,189,54,142,189,34,181,80,61,91,244,9,190,50,110,75,62,128,195,154,62,14,165,7,191,187,83,45,62,24,255,189,187,28,137,141,62,48,109,247,61,170,34,79,62,125,3,104,62,160,80,144,190,80,157,171,190,56,4,80,190,27,141,133,62,240,71,74,190,135,31,33,62,184,251,161,189,120,127,119,190,116,100,132,62,119,217,3,191,48,238,168,190,122,126,114,190,232,138,75,190,229,59,4,63,253,58,67,62,139,54,54,190,208,93,104,61,178,154,145,190,32,221,3,190,67,235,171,60,13,142,75,190,6,60,0,63,173,150,132,190,79,66,156,62,117,12,219,189,233,27,2,190,43,228,130,190,32,242,104,190,175,125,153,62,209,147,40,63,101,61,44,190,117,83,230,189,154,254,255,255,4,0,0,0,0,1,0,0,169,244,41,191,97,176,16,191,142,20,34,191,15,61,215,61,250,102,129,60,252,234,244,62,185,228,119,190,117,113,38,191,28,27,90,190,240,101,202,189,153,84,152,61,112,249,168,190,219,141,8,190,157,50,69,190,146,37,53,188,203,57,230,189,241,8,72,61,100,193,10,190,39,174,20,190,126,111,158,190,98,185,118,188,2,33,169,190,200,218,224,62,185,4,225,60,193,9,207,61,77,114,84,190,26,107,14,191,252,146,6,63,95,252,204,190,12,228,160,61,16,141,32,191,205,138,26,191,104,35,207,61,3,40,158,189,162,239,12,62,192,138,148,190,76,97,134,62,44,221,132,190,160,7,122,189,78,57,151,61,159,227,58,62,244,31,146,62,36,227,164,62,49,133,143,190,109,54,182,61,81,181,27,190,138,174,30,189,43,122,135,190,123,222,164,62,99,216,132,190,207,118,65,62,8,113,254,61,235,67,235,61,248,180,67,190,26,134,164,62,50,26,159,61,5,145,142,190,239,154,57,191,35,114,72,190,27,182,159,62,36,190,11,191,149,107,22,63,213,27,165,190,38,6,9,191,166,255,255,255,4,0,0,0,32,0,0,0,0,54,127,190,116,136,51,191,33,66,7,191,161,105,197,62,163,238,189,190,150,89,223,61,233,48,174,190,95,123,15,191,210,255,255,255,4,0,0,0,32,0,0,0,166,60,241,190,151,156,249,62,134,222,235,190,154,37,240,189,214,236,207,190,113,243,137,63,4,13,74,191,102,2,236,190,0,0,6,0,8,0,4,0,6,0,0,0,4,0,0,0,32,0,0,0,107,55,246,61,212,199,19,189,27,14,216,61,105,201,244,61,209,138,78,190,93,237,247,189,149,56,135,190,65,225,216,62,88,245,255,255,92,245,255,255,15,0,0,0,77,76,73,82,32,67,111,110,118,101,114,116,101,100,46,0,1,0,0,0,20,0,0,0,0,0,14,0,24,0,20,0,16,0,12,0,8,0,4,0,14,0,0,0,20,0,0,0,28,0,0,0,132,2,0,0,136,2,0,0,140,2,0,0,4,0,0,0,109,97,105,110,0,0,0,0,8,0,0,0,36,2,0,0,200,1,0,0,104,1,0,0,24,1,0,0,196,0,0,0,128,0,0,0,60,0,0,0,4,0,0,0,190,254,255,255,20,0,0,0,0,0,0,8,16,0,0,0,20,0,0,0,4,0,0,0,236,245,255,255,1,0,0,0,21,0,0,0,3,0,0,0,20,0,0,0,7,0,0,0,9,0,0,0,142,255,255,255,28,0,0,0,0,0,0,8,28,0,0,0,32,0,0,0,4,0,0,0,0,0,6,0,8,0,7,0,6,0,0,0,0,0,0,1,1,0,0,0,20,0,0,0,3,0,0,0,19,0,0,0,8,0,0,0,10,0,0,0,50,255,255,255,20,0,0,0,0,0,0,27,16,0,0,0,20,0,0,0,3,0,0,0,96,246,255,255,1,0,0,0,19,0,0,0,2,0,0,0,18,0,0,0,11,0,0,0,0,0,14,0,26,0,20,0,16,0,12,0,11,0,4,0,14,0,0,0,36,0,0,0,0,0,0,5,52,0,0,0,56,0,0,0,2,0,0,0,0,0,14,0,24,0,23,0,16,0,12,0,8,0,4,0,14,0,0,0,4,0,0,0,4,0,0,0,4,0,0,0,4,0,0,0,0,0,0,1,1,0,0,0,18,0,0,0,1,0,0,0,17,0,0,0,102,255,255,255,16,0,0,0,0,0,0,1,24,0,0,0,28,0,0,0,88,255,255,255,0,0,0,1,1,0,0,0,1,0,0,0,1,0,0,0,17,0,0,0,3,0,0,0,16,0,0,0,4,0,0,0,1,0,0,0,0,0,14,0,24,0,20,0,16,0,12,0,11,0,4,0,14,0,0,0,32,0,0,0,0,0,0,2,40,0,0,0,44,0,0,0,1,0,0,0,12,0,16,0,0,0,12,0,8,0,4,0,12,0,0,0,1,0,0,0,1,0,0,0,1,0,0,0,1,0,0,0,16,0,0,0,3,0,0,0,15,0,0,0,5,0,0,0,3,0,0,0,0,0,14,0,20,0,0,0,16,0,12,0,11,0,4,0,14,0,0,0,28,0,0,0,0,0,0,1,36,0,0,0,40,0,0,0,12,0,16,0,0,0,12,0,8,0,7,0,12,0,0,0,0,0,0,1,1,0,0,0,1,0,0,0,1,0,0,0,15,0,0,0,3,0,0,0,14,0,0,0,6,0,0,0,2,0,0,0,0,0,14,0,22,0,0,0,16,0,12,0,11,0,4,0,14,0,0,0,28,0,0,0,0,0,0,1,32,0,0,0,36,0,0,0,0,0,10,0,12,0,0,0,8,0,4,0,10,0,0,0,1,0,0,0,1,0,0,0,1,0,0,0,14,0,0,0,3,0,0,0,0,0,0,0,12,0,0,0,13,0,0,0,1,0,0,0,21,0,0,0,1,0,0,0,0,0,0,0,22,0,0,0,184,7,0,0,100,7,0,0,40,7,0,0,236,6,0,0,164,6,0,0,92,6,0,0,20,6,0,0,212,5,0,0,148,5,0,0,96,5,0,0,44,5,0,0,196,4,0,0,76,4,0,0,216,3,0,0,88,3,0,0,188,2,0,0,44,2,0,0,144,1,0,0,44,1,0,0,216,0,0,0,72,0,0,0,4,0,0,0,182,248,255,255,0,0,0,1,16,0,0,0,16,0,0,0,22,0,0,0,32,0,0,0,160,248,255,255,17,0,0,0,80,97,114,116,105,116,105,111,110,101,100,67,97,108,108,58,48,0,0,0,2,0,0,0,1,0,0,0,3,0,0,0,246,248,255,255,0,0,0,1,16,0,0,0,16,0,0,0,21,0,0,0,108,0,0,0,224,248,255,255,92,0,0,0,109,111,100,101,108,95,50,47,116,102,46,108,105,110,97,108,103,46,109,97,116,109,117,108,47,77,97,116,77,117,108,59,109,111,100,101,108,95,50,47,116,102,46,110,110,46,114,101,108,117,95,50,47,82,101,108,117,59,109,111,100,101,108,95,50,47,116,102,46,95,95,111,112,101,114,97,116,111,114,115,95,95,46,97,100,100,47,65,100,100,86,50,0,0,0,0,2,0,0,0,1,0,0,0,8,0,0,0,130,249,255,255,0,0,0,1,16,0,0,0,16,0,0,0,20,0,0,0,48,0,0,0,108,249,255,255,34,0,0,0,109,111,100,101,108,95,50,47,116,102,46,109,97,116,104,46,114,101,100,117,99,101,95,109,101,97,110,95,49,47,77,101,97,110,0,0,2,0,0,0,1,0,0,0,8,0,0,0,210,249,255,255,0,0,0,1,16,0,0,0,16,0,0,0,19,0,0,0,56,0,0,0,188,249,255,255,40,0,0,0,109,111,100,101,108,95,50,47,116,102,46,99,111,109,112,97,116,46,118,49,46,110,110,46,97,118,103,95,112,111,111,108,47,65,118,103,80,111,111,108,0,0,0,0,4,0,0,0,1,0,0,0,24,0,0,0,24,0,0,0,8,0,0,0,50,250,255,255,0,0,0,1,16,0,0,0,16,0,0,0,18,0,0,0,112,0,0,0,28,250,255,255,99,0,0,0,109,111,100,101,108,95,50,47,116,102,46,110,110,46,114,101,108,117,95,49,47,82,101,108,117,59,109,111,100,101,108,95,50,47,116,102,46,109,97,116,104,46,97,100,100,95,51,47,65,100,100,59,109,111,100,101,108,95,50,47,116,102,46,110,110,46,99,111,110,118,111,108,117,116,105,111,110,95,50,47,99,111,110,118,111,108,117,116,105,111,110,59,67,111,110,115,116,95,54,0,4,0,0,0,1,0,0,0,96,0,0,0,96,0,0,0,8,0,0,0,202,250,255,255,0,0,0,1,16,0,0,0,16,0,0,0,17,0,0,0,100,0,0,0,180,250,255,255,84,0,0,0,109,111,100,101,108,95,50,47,116,102,46,109,97,116,104,46,97,100,100,95,50,47,65,100,100,59,109,111,100,101,108,95,50,47,116,102,46,99,111,109,112,97,116,46,118,49,46,110,110,46,100,101,112,116,104,119,105,115,101,95,99,111,110,118,50,100,47,100,101,112,116,104,119,105,115,101,59,67,111,110,115,116,95,56,0,0,0,0,4,0,0,0,1,0,0,0,96,0,0,0,96,0,0,0,8,0,0,0,86,251,255,255,0,0,0,1,16,0,0,0,16,0,0,0,16,0,0,0,112,0,0,0,64,251,255,255,98,0,0,0,109,111,100,101,108,95,50,47,116,102,46,110,110,46,114,101,108,117,47,82,101,108,117,59,109,111,100,101,108,95,50,47,116,102,46,109,97,116,104,46,97,100,100,95,49,47,65,100,100,59,109,111,100,101,108,95,50,47,116,102,46,110,110,46,99,111,110,118,111,108,117,116,105,111,110,95,49,47,99,111,110,118,111,108,117,116,105,111,110,59,67,111,110,115,116,95,49,48,0,0,4,0,0,0,1,0,0,0,96,0,0,0,96,0,0,0,8,0,0,0,238,251,255,255,0,0,0,1,16,0,0,0,16,0,0,0,15,0,0,0,84,0,0,0,216,251,255,255,71,0,0,0,109,111,100,101,108,95,50,47,116,102,46,109,97,116,104,46,97,100,100,47,65,100,100,59,109,111,100,101,108,95,50,47,116,102,46,110,110,46,99,111,110,118,111,108,117,116,105,111,110,47,99,111,110,118,111,108,117,116,105,111,110,59,67,111,110,115,116,95,49,50,49,0,4,0,0,0,1,0,0,0,96,0,0,0,96,0,0,0,1,0,0,0,106,252,255,255,0,0,0,1,16,0,0,0,16,0,0,0,14,0,0,0,84,0,0,0,84,252,255,255,70,0,0,0,109,111,100,101,108,95,50,47,116,102,46,109,97,116,104,46,97,100,100,47,65,100,100,59,109,111,100,101,108,95,50,47,116,102,46,110,110,46,99,111,110,118,111,108,117,116,105,111,110,47,99,111,110,118,111,108,117,116,105,111,110,59,67,111,110,115,116,95,49,50,0,0,1,0,0,0,1,0,0,0,218,252,255,255,0,0,0,1,16,0,0,0,16,0,0,0,13,0,0,0,52,0,0,0,196,252,255,255,37,0,0,0,109,111,100,101,108,95,50,47,116,102,46,110,110,46,99,111,110,118,111,108,117,116,105,111,110,47,99,111,110,118,111,108,117,116,105,111,110,0,0,0,4,0,0,0,1,0,0,0,3,0,0,0,3,0,0,0,1,0,0,0,0,0,22,0,28,0,24,0,23,0,16,0,12,0,8,0,0,0,0,0,0,0,7,0,22,0,0,0,0,0,0,1,20,0,0,0,20,0,0,0,12,0,0,0,0,0,0,2,68,0,0,0,60,253,255,255,52,0,0,0,109,111,100,101,108,95,50,47,116,102,46,109,97,116,104,46,114,101,100,117,99,101,95,109,101,97,110,95,49,47,77,101,97,110,47,114,101,100,117,99,116,105,111,110,95,105,110,100,105,99,101,115,0,0,0,0,1,0,0,0,2,0,0,0,178,253,255,255,0,0,0,1,16,0,0,0,16,0,0,0,11,0,0,0,20,0,0,0,156,253,255,255,7,0,0,0,67,111,110,115,116,95,51,0,1,0,0,0,8,0,0,0,226,253,255,255,0,0,0,1,16,0,0,0,16,0,0,0,10,0,0,0,20,0,0,0,204,253,255,255,5,0,0,0,67,111,110,115,116,0,0,0,1,0,0,0,3,0,0,0,18,254,255,255,0,0,0,1,16,0,0,0,16,0,0,0,9,0,0,0,28,0,0,0,252,253,255,255,15,0,0,0,97,114,105,116,104,46,99,111,110,115,116,97,110,116,55,0,2,0,0,0,8,0,0,0,8,0,0,0,78,254,255,255,0,0,0,1,16,0,0,0,16,0,0,0,8,0,0,0,28,0,0,0,56,254,255,255,15,0,0,0,97,114,105,116,104,46,99,111,110,115,116,97,110,116,54,0,2,0,0,0,3,0,0,0,8,0,0,0,138,254,255,255,0,0,0,1,16,0,0,0,16,0,0,0,7,0,0,0,28,0,0,0,116,254,255,255,15,0,0,0,97,114,105,116,104,46,99,111,110,115,116,97,110,116,53,0,4,0,0,0,8,0,0,0,1,0,0,0,1,0,0,0,1,0,0,0,206,254,255,255,0,0,0,1,16,0,0,0,16,0,0,0,6,0,0,0,28,0,0,0,184,254,255,255,15,0,0,0,97,114,105,116,104,46,99,111,110,115,116,97,110,116,52,0,4,0,0,0,1,0,0,0,3,0,0,0,3,0,0,0,8,0,0,0,18,255,255,255,0,0,0,1,16,0,0,0,16,0,0,0,5,0,0,0,28,0,0,0,252,254,255,255,15,0,0,0,97,114,105,116,104,46,99,111,110,115,116,97,110,116,51,0,4,0,0,0,8,0,0,0,1,0,0,0,1,0,0,0,8,0,0,0,86,255,255,255,0,0,0,1,16,0,0,0,16,0,0,0,4,0,0,0,28,0,0,0,64,255,255,255,15,0,0,0,97,114,105,116,104,46,99,111,110,115,116,97,110,116,50,0,1,0,0,0,8,0,0,0,142,255,255,255,0,0,0,1,16,0,0,0,16,0,0,0,3,0,0,0,28,0,0,0,120,255,255,255,15,0,0,0,97,114,105,116,104,46,99,111,110,115,116,97,110,116,49,0,1,0,0,0,8,0,0,0,198,255,255,255,0,0,0,1,16,0,0,0,16,0,0,0,2,0,0,0,28,0,0,0,176,255,255,255,14,0,0,0,97,114,105,116,104,46,99,111,110,115,116,97,110,116,0,0,1,0,0,0,8,0,0,0,0,0,22,0,24,0,20,0,0,0,16,0,12,0,8,0,0,0,0,0,0,0,7,0,22,0,0,0,0,0,0,1,20,0,0,0,20,0,0,0,1,0,0,0,40,0,0,0,4,0,4,0,4,0,0,0,23,0,0,0,115,101,114,118,105,110,103,95,100,101,102,97,117,108,116,95,105,110,112,117,116,58,48,0,4,0,0,0,1,0,0,0,96,0,0,0,96,0,0,0,1,0,0,0,5,0,0,0,80,0,0,0,52,0,0,0,36,0,0,0,20,0,0,0,4,0,0,0,208,255,255,255,9,0,0,0,0,0,0,9,220,255,255,255,40,0,0,0,0,0,0,40,232,255,255,255,1,0,0,0,0,0,0,1,244,255,255,255,4,0,0,0,0,0,0,4,12,0,12,0,11,0,0,0,0,0,4,0,12,0,0,0,3,0,0,0,0,0,0,3};
const unsigned int g_llie_model_tflite_len = 4692;
